#pragma once
#include <stdint.h>

__attribute__((aligned(16))) const unsigned char mnist_cnn_int8_model[] = {
    0x1c,
    0x00,
    0x00,
    0x00,
    0x54,
    0x46,
    0x4c,
    0x33,
    0x14,
    0x00,
    0x20,
    0x00,
    0x1c,
    0x00,
    0x18,
    0x00,
    0x14,
    0x00,
    0x10,
    0x00,
    0x0c,
    0x00,
    0x00,
    0x00,
    0x08,
    0x00,
    0x04,
    0x00,
    0x14,
    0x00,
    0x00,
    0x00,
    0x1c,
    0x00,
    0x00,
    0x00,
    0x98,
    0x00,
    0x00,
    0x00,
    0x18,
    0x01,
    0x00,
    0x00,
    0xa8,
    0x09,
    0x00,
    0x00,
    0xb8,
    0x09,
    0x00,
    0x00,
    0xc4,
    0x16,
    0x00,
    0x00,
    0x03,
    0x00,
    0x00,
    0x00,
    0x01,
    0x00,
    0x00,
    0x00,
    0x10,
    0x00,
    0x00,
    0x00,
    0x00,
    0x00,
    0x0a,
    0x00,
    0x10,
    0x00,
    0x0c,
    0x00,
    0x08,
    0x00,
    0x04,
    0x00,
    0x0a,
    0x00,
    0x00,
    0x00,
    0x0c,
    0x00,
    0x00,
    0x00,
    0x1c,
    0x00,
    0x00,
    0x00,
    0x3c,
    0x00,
    0x00,
    0x00,
    0x0f,
    0x00,
    0x00,
    0x00,
    0x73,
    0x65,
    0x72,
    0x76,
    0x69,
    0x6e,
    0x67,
    0x5f,
    0x64,
    0x65,
    0x66,
    0x61,
    0x75,
    0x6c,
    0x74,
    0x00,
    0x01,
    0x00,
    0x00,
    0x00,
    0x04,
    0x00,
    0x00,
    0x00,
    0x68,
    0xff,
    0xff,
    0xff,
    0x0c,
    0x00,
    0x00,
    0x00,
    0x04,
    0x00,
    0x00,
    0x00,
    0x08,
    0x00,
    0x00,
    0x00,
    0x6f,
    0x75,
    0x74,
    0x70,
    0x75,
    0x74,
    0x5f,
    0x30,
    0x00,
    0x00,
    0x00,
    0x00,
    0x01,
    0x00,
    0x00,
    0x00,
    0x04,
    0x00,
    0x00,
    0x00,
    0x3a,
    0xf6,
    0xff,
    0xff,
    0x04,
    0x00,
    0x00,
    0x00,
    0x0e,
    0x00,
    0x00,
    0x00,
    0x6b,
    0x65,
    0x72,
    0x61,
    0x73,
    0x5f,
    0x74,
    0x65,
    0x6e,
    0x73,
    0x6f,
    0x72,
    0x5f,
    0x35,
    0x00,
    0x00,
    0x03,
    0x00,
    0x00,
    0x00,
    0x5c,
    0x00,
    0x00,
    0x00,
    0x2c,
    0x00,
    0x00,
    0x00,
    0x04,
    0x00,
    0x00,
    0x00,
    0xb8,
    0xff,
    0xff,
    0xff,
    0x10,
    0x00,
    0x00,
    0x00,
    0x04,
    0x00,
    0x00,
    0x00,
    0x13,
    0x00,
    0x00,
    0x00,
    0x43,
    0x4f,
    0x4e,
    0x56,
    0x45,
    0x52,
    0x53,
    0x49,
    0x4f,
    0x4e,
    0x5f,
    0x4d,
    0x45,
    0x54,
    0x41,
    0x44,
    0x41,
    0x54,
    0x41,
    0x00,
    0xdc,
    0xff,
    0xff,
    0xff,
    0x0f,
    0x00,
    0x00,
    0x00,
    0x04,
    0x00,
    0x00,
    0x00,
    0x13,
    0x00,
    0x00,
    0x00,
    0x6d,
    0x69,
    0x6e,
    0x5f,
    0x72,
    0x75,
    0x6e,
    0x74,
    0x69,
    0x6d,
    0x65,
    0x5f,
    0x76,
    0x65,
    0x72,
    0x73,
    0x69,
    0x6f,
    0x6e,
    0x00,
    0x08,
    0x00,
    0x0c,
    0x00,
    0x08,
    0x00,
    0x04,
    0x00,
    0x08,
    0x00,
    0x00,
    0x00,
    0x0e,
    0x00,
    0x00,
    0x00,
    0x04,
    0x00,
    0x00,
    0x00,
    0x13,
    0x00,
    0x00,
    0x00,
    0x6d,
    0x69,
    0x6e,
    0x5f,
    0x72,
    0x75,
    0x6e,
    0x74,
    0x69,
    0x6d,
    0x65,
    0x5f,
    0x76,
    0x65,
    0x72,
    0x73,
    0x69,
    0x6f,
    0x6e,
    0x00,
    0x11,
    0x00,
    0x00,
    0x00,
    0x8c,
    0x08,
    0x00,
    0x00,
    0x84,
    0x08,
    0x00,
    0x00,
    0x6c,
    0x08,
    0x00,
    0x00,
    0xf4,
    0x07,
    0x00,
    0x00,
    0x44,
    0x06,
    0x00,
    0x00,
    0xf4,
    0x05,
    0x00,
    0x00,
    0x64,
    0x01,
    0x00,
    0x00,
    0x34,
    0x01,
    0x00,
    0x00,
    0xdc,
    0x00,
    0x00,
    0x00,
    0xd4,
    0x00,
    0x00,
    0x00,
    0xcc,
    0x00,
    0x00,
    0x00,
    0xc4,
    0x00,
    0x00,
    0x00,
    0xbc,
    0x00,
    0x00,
    0x00,
    0xb4,
    0x00,
    0x00,
    0x00,
    0x94,
    0x00,
    0x00,
    0x00,
    0x74,
    0x00,
    0x00,
    0x00,
    0x04,
    0x00,
    0x00,
    0x00,
    0x22,
    0xf7,
    0xff,
    0xff,
    0x04,
    0x00,
    0x00,
    0x00,
    0x60,
    0x00,
    0x00,
    0x00,
    0x0c,
    0x00,
    0x00,
    0x00,
    0x08,
    0x00,
    0x0e,
    0x00,
    0x08,
    0x00,
    0x04,
    0x00,
    0x08,
    0x00,
    0x00,
    0x00,
    0x10,
    0x00,
    0x00,
    0x00,
    0x28,
    0x00,
    0x00,
    0x00,
    0x00,
    0x00,
    0x06,
    0x00,
    0x08,
    0x00,
    0x04,
    0x00,
    0x06,
    0x00,
    0x00,
    0x00,
    0x04,
    0x00,
    0x00,
    0x00,
    0x01,
    0x00,
    0x00,
    0x00,
    0xeb,
    0x03,
    0x00,
    0x00,
    0x0c,
    0x00,
    0x18,
    0x00,
    0x14,
    0x00,
    0x10,
    0x00,
    0x0c,
    0x00,
    0x04,
    0x00,
    0x0c,
    0x00,
    0x00,
    0x00,
    0x45,
    0x50,
    0x14,
    0x04,
    0x73,
    0xf7,
    0xe3,
    0x07,
    0x02,
    0x00,
    0x00,
    0x00,
    0x02,
    0x00,
    0x00,
    0x00,
    0x04,
    0x00,
    0x00,
    0x00,
    0x06,
    0x00,
    0x00,
    0x00,
    0x32,
    0x2e,
    0x31,
    0x39,
    0x2e,
    0x30,
    0x00,
    0x00,
    0x8e,
    0xf7,
    0xff,
    0xff,
    0x04,
    0x00,
    0x00,
    0x00,
    0x10,
    0x00,
    0x00,
    0x00,
    0x00,
    0x00,
    0x00,
    0x00,
    0x00,
    0x00,
    0x00,
    0x00,
    0x00,
    0x00,
    0x00,
    0x00,
    0x00,
    0x00,
    0x00,
    0x00,
    0xaa,
    0xf7,
    0xff,
    0xff,
    0x04,
    0x00,
    0x00,
    0x00,
    0x10,
    0x00,
    0x00,
    0x00,
    0x31,
    0x2e,
    0x31,
    0x34,
    0x2e,
    0x30,
    0x00,
    0x00,
    0x00,
    0x00,
    0x00,
    0x00,
    0x00,
    0x00,
    0x00,
    0x00,
    0x10,
    0xec,
    0xff,
    0xff,
    0x14,
    0xec,
    0xff,
    0xff,
    0x18,
    0xec,
    0xff,
    0xff,
    0x1c,
    0xec,
    0xff,
    0xff,
    0x20,
    0xec,
    0xff,
    0xff,
    0xda,
    0xf7,
    0xff,
    0xff,
    0x04,
    0x00,
    0x00,
    0x00,
    0x48,
    0x00,
    0x00,
    0x00,
    0x18,
    0x1c,
    0x52,
    0xce,
    0xd5,
    0x42,
    0x81,
    0xb2,
    0xf9,
    0x1a,
    0xec,
    0x1d,
    0x27,
    0xf9,
    0x11,
    0x7f,
    0x40,
    0x6b,
    0x82,
    0x9b,
    0xe1,
    0xe3,
    0xe9,
    0x3f,
    0x76,
    0x54,
    0x7f,
    0x7f,
    0x44,
    0x28,
    0x3a,
    0x00,
    0xd9,
    0x4c,
    0x10,
    0xf6,
    0x44,
    0x10,
    0x7f,
    0x1a,
    0xed,
    0x3e,
    0x68,
    0x1f,
    0x6e,
    0x7f,
    0x35,
    0x21,
    0x3d,
    0xee,
    0xd1,
    0x4b,
    0x04,
    0xf0,
    0xbe,
    0x81,
    0xba,
    0xf6,
    0xef,
    0x21,
    0x49,
    0x53,
    0x61,
    0x29,
    0x20,
    0x7f,
    0xf9,
    0xe9,
    0x46,
    0xf7,
    0xde,
    0x40,
    0x2e,
    0xf8,
    0xff,
    0xff,
    0x04,
    0x00,
    0x00,
    0x00,
    0x20,
    0x00,
    0x00,
    0x00,
    0x64,
    0xaf,
    0x00,
    0x00,
    0x01,
    0x00,
    0x00,
    0x00,
    0xc9,
    0x63,
    0x00,
    0x00,
    0x47,
    0x04,
    0x00,
    0x00,
    0x00,
    0x00,
    0x00,
    0x00,
    0xc0,
    0x02,
    0x00,
    0x00,
    0xeb,
    0xff,
    0xff,
    0xff,
    0xff,
    0xff,
    0xff,
    0xff,
    0x5a,
    0xf8,
    0xff,
    0xff,
    0x04,
    0x00,
    0x00,
    0x00,
    0x80,
    0x04,
    0x00,
    0x00,
    0x08,
    0x01,
    0xfa,
    0x0c,
    0x05,
    0x0b,
    0x10,
    0x08,
    0x07,
    0xfa,
    0xfd,
    0x04,
    0xff,
    0x04,
    0x06,
    0x03,
    0x01,
    0x03,
    0xf7,
    0x07,
    0x0c,
    0x09,
    0x13,
    0x11,
    0x06,
    0x02,
    0xfd,
    0xfc,
    0x02,
    0xfe,
    0x92,
    0x03,
    0x00,
    0x04,
    0x00,
    0x00,
    0xff,
    0x01,
    0xaf,
    0xff,
    0xf5,
    0x0f,
    0xfc,
    0x00,
    0x0f,
    0x00,
    0x43,
    0x0b,
    0xfe,
    0xe3,
    0xfa,
    0xf6,
    0xf6,
    0xf3,
    0x78,
    0x06,
    0xff,
    0xdf,
    0xf7,
    0xfa,
    0xf4,
    0xf8,
    0x34,
    0xff,
    0xe7,
    0xd5,
    0xc6,
    0xf7,
    0xec,
    0xf9,
    0x81,
    0xf6,
    0xdf,
    0x1a,
    0xe8,
    0x13,
    0x1c,
    0x1c,
    0xe3,
    0x05,
    0xdf,
    0x22,
    0xfc,
    0x1f,
    0x05,
    0x14,
    0x86,
    0x12,
    0xe4,
    0x19,
    0xe3,
    0x1c,
    0x0d,
    0x21,
    0xe9,
    0x0b,
    0xe3,
    0xf7,
    0xeb,
    0x0e,
    0xf8,
    0x0a,
    0x6e,
    0xfe,
    0xfa,
    0xf1,
    0xf5,
    0x08,
    0xf9,
    0x09,
    0x6a,
    0x0e,
    0xe0,
    0x08,
    0x01,
    0x0f,
    0x04,
    0x0f,
    0x7f,
    0xf5,
    0xeb,
    0x24,
    0x06,
    0x1e,
    0x1e,
    0x04,
    0xe6,
    0x1a,
    0xd8,
    0x18,
    0x03,
    0x18,
    0x2a,
    0x29,
    0xba,
    0x01,
    0xe9,
    0x0d,
    0x19,
    0x17,
    0x17,
    0x1c,
    0xf6,
    0x13,
    0xfc,
    0x19,
    0xfa,
    0x15,
    0x11,
    0x2b,
    0x1d,
    0x22,
    0x0f,
    0x0d,
    0xfb,
    0x0f,
    0x01,
    0x19,
    0x4c,
    0x0c,
    0x14,
    0x1f,
    0x1e,
    0x00,
    0x0d,
    0x03,
    0x54,
    0x1f,
    0x12,
    0x01,
    0xfc,
    0xfb,
    0xfe,
    0x07,
    0x6e,
    0x11,
    0x07,
    0xfc,
    0xe4,
    0x16,
    0x09,
    0x0c,
    0x7f,
    0xfe,
    0x27,
    0x00,
    0xfa,
    0x08,
    0x03,
    0xfe,
    0x6e,
    0x15,
    0x14,
    0xe0,
    0xf6,
    0xe7,
    0xec,
    0xf1,
    0xfa,
    0x05,
    0x23,
    0xe5,
    0xf7,
    0x00,
    0xef,
    0xf3,
    0x0a,
    0xfc,
    0x36,
    0xe7,
    0x04,
    0xe9,
    0xec,
    0xf3,
    0xa3,
    0x01,
    0x01,
    0xff,
    0x01,
    0xce,
    0xf9,
    0xca,
    0x81,
    0x03,
    0xfa,
    0xfb,
    0x01,
    0xf6,
    0xf7,
    0xf6,
    0xd7,
    0xf5,
    0xf8,
    0x0b,
    0x01,
    0xf7,
    0x0e,
    0xfb,
    0xb5,
    0x10,
    0xff,
    0xfa,
    0xff,
    0xf4,
    0xfb,
    0xf6,
    0xb6,
    0x0b,
    0xfd,
    0x05,
    0xff,
    0xfa,
    0x03,
    0xfe,
    0xbb,
    0x02,
    0xfd,
    0x08,
    0xf9,
    0x00,
    0x0c,
    0x08,
    0xb6,
    0x15,
    0x17,
    0xef,
    0x0a,
    0xde,
    0xf1,
    0xe4,
    0xbf,
    0x09,
    0x08,
    0x08,
    0x0f,
    0x02,
    0x06,
    0x04,
    0xde,
    0xff,
    0x09,
    0x19,
    0x1e,
    0x06,
    0x17,
    0x09,
    0x01,
    0x15,
    0xe9,
    0x08,
    0x0f,
    0xf1,
    0xff,
    0xf9,
    0xe7,
    0xeb,
    0xed,
    0x07,
    0x10,
    0xeb,
    0xfc,
    0xeb,
    0xea,
    0xf3,
    0xee,
    0x08,
    0x1e,
    0xec,
    0xf4,
    0xee,
    0x21,
    0xe1,
    0xfd,
    0x0b,
    0xff,
    0x14,
    0x09,
    0x11,
    0xfd,
    0x0b,
    0x03,
    0xfc,
    0x05,
    0x0a,
    0x08,
    0x03,
    0x30,
    0x05,
    0x11,
    0x00,
    0x11,
    0x05,
    0x0d,
    0x0c,
    0x45,
    0x16,
    0x35,
    0xf5,
    0x10,
    0x04,
    0xfa,
    0x04,
    0xb9,
    0x00,
    0x31,
    0xf5,
    0x11,
    0xf6,
    0xf7,
    0xf8,
    0x81,
    0xfc,
    0x44,
    0xf0,
    0x20,
    0xf3,
    0xf9,
    0xf5,
    0xc4,
    0x00,
    0x11,
    0xfe,
    0xf2,
    0xf6,
    0x0a,
    0xf5,
    0x81,
    0x0e,
    0xfe,
    0x11,
    0xf5,
    0x0d,
    0x0e,
    0x0e,
    0x13,
    0x0a,
    0xec,
    0xf7,
    0x07,
    0xf0,
    0xf2,
    0xf5,
    0x0a,
    0xdc,
    0x0c,
    0xea,
    0xfb,
    0xdd,
    0xf2,
    0xdd,
    0xb9,
    0x05,
    0x06,
    0x08,
    0xf0,
    0x12,
    0x0e,
    0x12,
    0xf2,
    0x09,
    0x06,
    0x0b,
    0x04,
    0x0b,
    0x0f,
    0x0f,
    0x24,
    0x0c,
    0xf2,
    0x0e,
    0x01,
    0x04,
    0x07,
    0x07,
    0xfe,
    0xf0,
    0x0c,
    0xec,
    0xda,
    0xf5,
    0xf4,
    0xf2,
    0xc0,
    0xf9,
    0x1a,
    0x05,
    0xfc,
    0x0a,
    0x0f,
    0x03,
    0x12,
    0x14,
    0x02,
    0xeb,
    0x02,
    0xf0,
    0xf3,
    0xf4,
    0xc5,
    0xfc,
    0x03,
    0x0b,
    0x06,
    0x0e,
    0x10,
    0x12,
    0x0d,
    0x0d,
    0x2c,
    0xed,
    0x1f,
    0x0b,
    0xee,
    0x0b,
    0x9d,
    0xf1,
    0x03,
    0xea,
    0xfe,
    0xdc,
    0xf3,
    0xdb,
    0x0a,
    0x03,
    0x07,
    0x10,
    0x05,
    0x12,
    0x0e,
    0x15,
    0x31,
    0x0c,
    0x29,
    0xf6,
    0x20,
    0x00,
    0xec,
    0x03,
    0x81,
    0xe6,
    0xf5,
    0xfb,
    0x00,
    0xed,
    0xfb,
    0xee,
    0x18,
    0xf6,
    0xf3,
    0x17,
    0x0b,
    0x06,
    0x0e,
    0x08,
    0x34,
    0x0d,
    0x29,
    0xfc,
    0x2b,
    0x0a,
    0xf2,
    0x03,
    0xdb,
    0xdc,
    0x08,
    0x13,
    0x11,
    0x25,
    0x18,
    0x23,
    0x46,
    0x11,
    0xf3,
    0xe6,
    0x1d,
    0xe2,
    0xd6,
    0xe7,
    0x2c,
    0xd0,
    0xa1,
    0x21,
    0xd5,
    0x26,
    0x2d,
    0x24,
    0xbc,
    0x26,
    0xe2,
    0x0d,
    0x32,
    0x0f,
    0xfd,
    0x12,
    0x4b,
    0xf1,
    0x0d,
    0xe0,
    0x28,
    0xd7,
    0xdd,
    0xd6,
    0x2c,
    0xe6,
    0x81,
    0x27,
    0xcc,
    0x30,
    0x10,
    0x31,
    0x16,
    0x00,
    0xbe,
    0x0b,
    0xe9,
    0x20,
    0x04,
    0x1f,
    0xf7,
    0xe4,
    0xf9,
    0xcd,
    0x0f,
    0xc8,
    0xd6,
    0xc9,
    0x0e,
    0xda,
    0x83,
    0x04,
    0xb6,
    0x1e,
    0x1a,
    0x17,
    0xcb,
    0x0a,
    0xff,
    0xe9,
    0x02,
    0xd9,
    0xe5,
    0xda,
    0x15,
    0xe6,
    0xff,
    0x04,
    0x07,
    0xed,
    0xfe,
    0xec,
    0x2c,
    0xfa,
    0xfe,
    0x03,
    0x0b,
    0xfe,
    0x00,
    0xfc,
    0x35,
    0xf9,
    0x01,
    0xf3,
    0x02,
    0xdb,
    0xf7,
    0xda,
    0xe7,
    0x06,
    0x01,
    0x0f,
    0x01,
    0x15,
    0x0a,
    0x16,
    0x34,
    0x06,
    0x03,
    0x05,
    0x07,
    0x04,
    0x09,
    0x05,
    0x72,
    0x08,
    0x0a,
    0xc1,
    0x04,
    0xdc,
    0xe6,
    0xd8,
    0x81,
    0x09,
    0x0a,
    0xe4,
    0x02,
    0xfe,
    0xf9,
    0xfb,
    0x97,
    0x07,
    0x10,
    0xe4,
    0xf9,
    0xfa,
    0xed,
    0xfa,
    0xc5,
    0xf6,
    0x00,
    0x05,
    0x05,
    0xfe,
    0x10,
    0xf7,
    0xe9,
    0x18,
    0xed,
    0x0c,
    0xf0,
    0x1b,
    0x14,
    0x19,
    0xeb,
    0x0b,
    0xd6,
    0xf2,
    0xf7,
    0xe7,
    0xec,
    0xee,
    0x66,
    0xe2,
    0xff,
    0x15,
    0x0e,
    0x12,
    0x11,
    0x10,
    0x17,
    0x15,
    0xf0,
    0xf3,
    0xee,
    0x0a,
    0xf2,
    0x0d,
    0x38,
    0xf5,
    0xf0,
    0xef,
    0x01,
    0xee,
    0xf0,
    0xe5,
    0x7f,
    0x02,
    0x0a,
    0x1a,
    0x21,
    0x23,
    0x18,
    0x25,
    0x09,
    0x0f,
    0x0a,
    0xf1,
    0x08,
    0xee,
    0xed,
    0xf6,
    0xf2,
    0xf4,
    0x2a,
    0xf0,
    0x16,
    0xec,
    0xfb,
    0xed,
    0x52,
    0x08,
    0x6a,
    0x06,
    0x2e,
    0x18,
    0xf8,
    0x10,
    0x02,
    0x0b,
    0x5e,
    0xcd,
    0x2a,
    0xd5,
    0xe6,
    0xd4,
    0x32,
    0xf5,
    0x47,
    0xe5,
    0x1d,
    0x0c,
    0xee,
    0x04,
    0x07,
    0x03,
    0x3d,
    0x23,
    0x4b,
    0x21,
    0x0c,
    0x22,
    0xcc,
    0x1c,
    0x3b,
    0x11,
    0x30,
    0xf1,
    0x09,
    0xdd,
    0xf8,
    0xf4,
    0x3e,
    0x05,
    0x19,
    0x24,
    0xf6,
    0x17,
    0xad,
    0x06,
    0x66,
    0x0e,
    0x21,
    0x19,
    0x19,
    0x1a,
    0x49,
    0x0a,
    0x4f,
    0xdf,
    0x36,
    0xee,
    0xea,
    0xf6,
    0x7f,
    0xee,
    0x5b,
    0xec,
    0x2c,
    0x13,
    0xe2,
    0x08,
    0x30,
    0xd1,
    0xfd,
    0x12,
    0xe1,
    0x1c,
    0x10,
    0x1f,
    0xe2,
    0x11,
    0x03,
    0x09,
    0xe7,
    0x11,
    0x11,
    0x0f,
    0xea,
    0x0e,
    0x07,
    0x0e,
    0xe4,
    0x19,
    0x13,
    0x10,
    0xf0,
    0x1a,
    0xfb,
    0xfe,
    0xe3,
    0x05,
    0x00,
    0x06,
    0x88,
    0x03,
    0xff,
    0xfd,
    0xe2,
    0x02,
    0x02,
    0x04,
    0x81,
    0x04,
    0xfe,
    0x00,
    0xe2,
    0x09,
    0x02,
    0x03,
    0x8c,
    0x07,
    0x1f,
    0xfd,
    0x0a,
    0xf6,
    0xfc,
    0xfc,
    0xa6,
    0xff,
    0x1a,
    0x03,
    0x07,
    0xfe,
    0x01,
    0x00,
    0xa8,
    0x07,
    0x19,
    0xee,
    0xfc,
    0xfb,
    0xec,
    0xfc,
    0x84,
    0xe7,
    0xf4,
    0x0f,
    0xfc,
    0x15,
    0x0e,
    0x0c,
    0x41,
    0x10,
    0xef,
    0x0b,
    0x06,
    0x06,
    0x08,
    0x12,
    0x3e,
    0x09,
    0x0d,
    0x13,
    0x0f,
    0x0e,
    0x15,
    0x10,
    0x46,
    0x13,
    0xfc,
    0x01,
    0xfc,
    0x03,
    0xfe,
    0x0b,
    0x77,
    0x05,
    0xf2,
    0x04,
    0xf9,
    0x05,
    0xfb,
    0x00,
    0x76,
    0x06,
    0x1c,
    0xfa,
    0x0c,
    0x08,
    0x04,
    0x05,
    0x7f,
    0x0a,
    0xf2,
    0x08,
    0xe0,
    0x08,
    0x04,
    0x05,
    0x08,
    0x05,
    0xf2,
    0x0a,
    0xe9,
    0xff,
    0x03,
    0x08,
    0x11,
    0x00,
    0x08,
    0x01,
    0xf3,
    0x07,
    0x00,
    0x05,
    0xe1,
    0xf4,
    0x04,
    0x00,
    0xfd,
    0x0a,
    0x07,
    0x0c,
    0x26,
    0x0f,
    0x08,
    0x08,
    0x02,
    0x0f,
    0x10,
    0x0f,
    0xf2,
    0x16,
    0xe7,
    0xe3,
    0xdd,
    0x02,
    0xd9,
    0x03,
    0x81,
    0xc1,
    0xf5,
    0x06,
    0x13,
    0x07,
    0x05,
    0x06,
    0x53,
    0xff,
    0xfc,
    0x05,
    0xfc,
    0xfe,
    0x00,
    0xfc,
    0xa5,
    0xff,
    0xef,
    0xf2,
    0xf3,
    0x04,
    0xe9,
    0x0d,
    0xfb,
    0xe4,
    0x07,
    0x07,
    0x0b,
    0x0a,
    0x08,
    0x09,
    0xe7,
    0x0b,
    0x10,
    0xe6,
    0xff,
    0xf7,
    0xea,
    0xf9,
    0x88,
    0xea,
    0x0f,
    0xff,
    0x11,
    0xdf,
    0x03,
    0xe1,
    0xf6,
    0x07,
    0x04,
    0x3d,
    0x21,
    0xbb,
    0x90,
    0x13,
    0xe1,
    0xa3,
    0xee,
    0xe1,
    0x5b,
    0x94,
    0xf3,
    0x84,
    0xdb,
    0x36,
    0x1a,
    0x1e,
    0xd7,
    0x2f,
    0x88,
    0x08,
    0xfc,
    0xcf,
    0xac,
    0xbc,
    0xac,
    0x41,
    0x9e,
    0x0a,
    0x39,
    0x36,
    0xfc,
    0x0f,
    0xfd,
    0xe3,
    0xa1,
    0x10,
    0x44,
    0xa8,
    0xa7,
    0xbb,
    0xc2,
    0x11,
    0xac,
    0x02,
    0xa5,
    0x93,
    0x0d,
    0x2c,
    0x43,
    0x0d,
    0x82,
    0xfd,
    0xdb,
    0x98,
    0xc9,
    0x81,
    0xda,
    0xad,
    0x97,
    0x42,
    0xcc,
    0xde,
    0xb8,
    0xa8,
    0xd1,
    0xe4,
    0xc2,
    0x85,
    0xb6,
    0xc7,
    0x03,
    0x01,
    0x02,
    0xfe,
    0x00,
    0xff,
    0xe9,
    0x00,
    0x08,
    0x02,
    0x0b,
    0xfd,
    0xfe,
    0xff,
    0xd9,
    0xfc,
    0xe6,
    0xf8,
    0xf1,
    0xfb,
    0xf0,
    0xf5,
    0x81,
    0xd9,
    0x02,
    0xfe,
    0x00,
    0x02,
    0xfd,
    0x03,
    0xd4,
    0x00,
    0x0c,
    0x05,
    0x01,
    0x04,
    0x04,
    0x02,
    0xb3,
    0x08,
    0xf2,
    0xfe,
    0xee,
    0x0a,
    0xfb,
    0x0c,
    0xa7,
    0xf2,
    0xf6,
    0x12,
    0x17,
    0x0a,
    0x10,
    0x08,
    0xf5,
    0x05,
    0x01,
    0x07,
    0x06,
    0x06,
    0x06,
    0x05,
    0xd4,
    0x00,
    0x00,
    0xf8,
    0xfd,
    0xfc,
    0xf8,
    0xfb,
    0xea,
    0xf3,
    0xe6,
    0xfc,
    0xff,
    0xff,
    0x04,
    0x00,
    0x00,
    0x00,
    0x40,
    0x00,
    0x00,
    0x00,
    0x10,
    0x00,
    0x00,
    0x00,
    0x3f,
    0xff,
    0xff,
    0xff,
    0x2a,
    0x00,
    0x00,
    0x00,
    0xd1,
    0xff,
    0xff,
    0xff,
    0xda,
    0xff,
    0xff,
    0xff,
    0xfd,
    0xff,
    0xff,
    0xff,
    0xeb,
    0xff,
    0xff,
    0xff,
    0x5c,
    0xff,
    0xff,
    0xff,
    0xf2,
    0xff,
    0xff,
    0xff,
    0xc6,
    0xff,
    0xff,
    0xff,
    0x67,
    0x03,
    0x00,
    0x00,
    0xb0,
    0xff,
    0xff,
    0xff,
    0x39,
    0xff,
    0xff,
    0xff,
    0x29,
    0x00,
    0x00,
    0x00,
    0x1c,
    0x00,
    0x00,
    0x00,
    0x6f,
    0x00,
    0x00,
    0x00,
    0x32,
    0xfd,
    0xff,
    0xff,
    0x04,
    0x00,
    0x00,
    0x00,
    0xa0,
    0x01,
    0x00,
    0x00,
    0xa9,
    0x34,
    0xdd,
    0x81,
    0xca,
    0xf5,
    0xf6,
    0x10,
    0xb5,
    0x51,
    0x2a,
    0xc9,
    0x18,
    0xc4,
    0x39,
    0x4e,
    0x0a,
    0x48,
    0xd0,
    0x0d,
    0x37,
    0xfc,
    0xed,
    0x4e,
    0xf4,
    0x28,
    0xce,
    0x81,
    0x40,
    0xc6,
    0xef,
    0xe3,
    0x32,
    0xde,
    0xfe,
    0x13,
    0x1d,
    0xeb,
    0xd2,
    0xdb,
    0x81,
    0xd1,
    0x15,
    0x2a,
    0xf5,
    0x07,
    0x12,
    0x01,
    0x28,
    0x08,
    0xc6,
    0xc2,
    0x2d,
    0xea,
    0xda,
    0x22,
    0xd3,
    0xd6,
    0xde,
    0xac,
    0x56,
    0x2a,
    0xcf,
    0x7f,
    0xf1,
    0x23,
    0x21,
    0x1b,
    0x3d,
    0xcf,
    0x8f,
    0xf5,
    0x81,
    0xf2,
    0x26,
    0xf6,
    0x06,
    0x88,
    0xe4,
    0x82,
    0xd5,
    0xe6,
    0xfa,
    0x2b,
    0x33,
    0xfb,
    0xe2,
    0x26,
    0x29,
    0x19,
    0xe5,
    0x2a,
    0x07,
    0xc9,
    0x14,
    0x81,
    0xc2,
    0x0b,
    0x14,
    0x9e,
    0x4e,
    0x29,
    0x81,
    0x27,
    0xdb,
    0xd6,
    0xf6,
    0xcf,
    0x37,
    0x2a,
    0xf9,
    0x2c,
    0xd4,
    0x08,
    0xa1,
    0x0f,
    0x9b,
    0xf7,
    0x6e,
    0x1f,
    0x2e,
    0x7f,
    0xe4,
    0xe2,
    0x17,
    0xc8,
    0xdd,
    0xeb,
    0x3a,
    0x1a,
    0xf4,
    0x24,
    0x37,
    0x81,
    0xee,
    0x9e,
    0x40,
    0xe6,
    0xda,
    0x31,
    0xc3,
    0x03,
    0xdf,
    0x2a,
    0x7f,
    0xc6,
    0x10,
    0xdf,
    0x4e,
    0x06,
    0xce,
    0xc5,
    0x5c,
    0xc3,
    0xbb,
    0x62,
    0xb2,
    0x6b,
    0xd7,
    0x57,
    0x13,
    0xf7,
    0xd2,
    0x49,
    0xc4,
    0x2e,
    0x1f,
    0x3d,
    0xb7,
    0x22,
    0x10,
    0xd6,
    0x23,
    0xdf,
    0xf3,
    0x81,
    0x7c,
    0xf2,
    0xcd,
    0x59,
    0x1a,
    0x81,
    0x11,
    0xbe,
    0x0d,
    0xe1,
    0xe3,
    0x1d,
    0xe9,
    0x15,
    0x0e,
    0x04,
    0xba,
    0xef,
    0x27,
    0xc7,
    0x81,
    0xf5,
    0x4f,
    0x42,
    0x04,
    0x45,
    0x03,
    0x1e,
    0xde,
    0xde,
    0xfc,
    0x1a,
    0xcb,
    0xe9,
    0x0e,
    0xec,
    0x81,
    0x0c,
    0x3c,
    0x08,
    0xfc,
    0x1d,
    0x0b,
    0x1e,
    0xe9,
    0x11,
    0x0a,
    0x24,
    0xec,
    0xfc,
    0x01,
    0xf8,
    0xe5,
    0xf7,
    0xe7,
    0xe0,
    0x81,
    0xf5,
    0x22,
    0x00,
    0x08,
    0x05,
    0x0d,
    0x12,
    0x81,
    0xf6,
    0x20,
    0x2b,
    0x29,
    0xfb,
    0xe4,
    0x60,
    0xf5,
    0x11,
    0xd9,
    0x0c,
    0x12,
    0xe2,
    0x04,
    0x8d,
    0x9b,
    0x1a,
    0x01,
    0x81,
    0xfa,
    0x5d,
    0xb7,
    0x41,
    0xd8,
    0x11,
    0x0a,
    0xb4,
    0x33,
    0x15,
    0xe3,
    0x3f,
    0x91,
    0xe6,
    0x1f,
    0x3c,
    0xef,
    0xf7,
    0xf2,
    0x37,
    0x93,
    0x22,
    0x06,
    0x64,
    0xca,
    0xbe,
    0x0c,
    0x81,
    0x41,
    0x05,
    0x1c,
    0x0a,
    0x2f,
    0x12,
    0x81,
    0xa9,
    0x25,
    0x8c,
    0x12,
    0xfb,
    0x0f,
    0xf2,
    0xfb,
    0xfb,
    0xdc,
    0x33,
    0x0a,
    0xfe,
    0x66,
    0x92,
    0xf1,
    0xd6,
    0x7f,
    0x3f,
    0xa8,
    0x4f,
    0xac,
    0xc6,
    0x00,
    0xbc,
    0x46,
    0x05,
    0xc9,
    0xf5,
    0xb2,
    0xe4,
    0x29,
    0xd1,
    0x81,
    0x02,
    0x1e,
    0xdf,
    0x03,
    0x30,
    0x19,
    0x51,
    0x0d,
    0x1a,
    0xde,
    0x2b,
    0x81,
    0x20,
    0x27,
    0xe7,
    0xe5,
    0xd0,
    0x2c,
    0xf1,
    0xe4,
    0x4c,
    0x07,
    0x03,
    0x23,
    0x0b,
    0xea,
    0xe7,
    0x81,
    0x0c,
    0x50,
    0x26,
    0xe3,
    0x25,
    0x12,
    0xe1,
    0xf5,
    0x08,
    0x04,
    0x11,
    0xe6,
    0xf2,
    0xeb,
    0x02,
    0x81,
    0x6d,
    0xe1,
    0xd4,
    0x67,
    0xdd,
    0x2f,
    0xec,
    0x23,
    0x1b,
    0x0a,
    0xec,
    0xce,
    0xd5,
    0x0c,
    0xe2,
    0xb0,
    0x4e,
    0xfe,
    0xdf,
    0x67,
    0xdd,
    0xf6,
    0x1a,
    0xf4,
    0x7f,
    0x0d,
    0x34,
    0x1e,
    0xfb,
    0xfb,
    0xd7,
    0x3f,
    0x89,
    0xa9,
    0x81,
    0x46,
    0x04,
    0xf4,
    0x14,
    0x18,
    0xd6,
    0x10,
    0x0f,
    0xde,
    0xfe,
    0xff,
    0xff,
    0x04,
    0x00,
    0x00,
    0x00,
    0x68,
    0x00,
    0x00,
    0x00,
    0x14,
    0x00,
    0x00,
    0x00,
    0x45,
    0xfe,
    0xff,
    0xff,
    0xc0,
    0x00,
    0x00,
    0x00,
    0x58,
    0xff,
    0xff,
    0xff,
    0x34,
    0x00,
    0x00,
    0x00,
    0x64,
    0xff,
    0xff,
    0xff,
    0x36,
    0xff,
    0xff,
    0xff,
    0x51,
    0xfe,
    0xff,
    0xff,
    0x44,
    0x00,
    0x00,
    0x00,
    0xc9,
    0xfe,
    0xff,
    0xff,
    0x82,
    0xff,
    0xff,
    0xff,
    0xcf,
    0xff,
    0xff,
    0xff,
    0xe2,
    0xff,
    0xff,
    0xff,
    0x70,
    0x00,
    0x00,
    0x00,
    0x87,
    0x00,
    0x00,
    0x00,
    0xac,
    0xfe,
    0xff,
    0xff,
    0xec,
    0x00,
    0x00,
    0x00,
    0x1b,
    0x01,
    0x00,
    0x00,
    0xb9,
    0x00,
    0x00,
    0x00,
    0x09,
    0xfe,
    0xff,
    0xff,
    0x8d,
    0x01,
    0x00,
    0x00,
    0x06,
    0x01,
    0x00,
    0x00,
    0x69,
    0x00,
    0x00,
    0x00,
    0xc1,
    0x00,
    0x00,
    0x00,
    0x46,
    0x00,
    0x00,
    0x00,
    0x18,
    0xff,
    0xff,
    0xff,
    0x52,
    0xff,
    0xff,
    0xff,
    0x04,
    0x00,
    0x00,
    0x00,
    0x08,
    0x00,
    0x00,
    0x00,
    0x01,
    0x00,
    0x00,
    0x00,
    0x02,
    0x00,
    0x00,
    0x00,
    0xb0,
    0xf3,
    0xff,
    0xff,
    0xb4,
    0xf3,
    0xff,
    0xff,
    0x0f,
    0x00,
    0x00,
    0x00,
    0x4d,
    0x4c,
    0x49,
    0x52,
    0x20,
    0x43,
    0x6f,
    0x6e,
    0x76,
    0x65,
    0x72,
    0x74,
    0x65,
    0x64,
    0x2e,
    0x00,
    0x01,
    0x00,
    0x00,
    0x00,
    0x14,
    0x00,
    0x00,
    0x00,
    0x00,
    0x00,
    0x0e,
    0x00,
    0x18,
    0x00,
    0x14,
    0x00,
    0x10,
    0x00,
    0x0c,
    0x00,
    0x08,
    0x00,
    0x04,
    0x00,
    0x0e,
    0x00,
    0x00,
    0x00,
    0x14,
    0x00,
    0x00,
    0x00,
    0x1c,
    0x00,
    0x00,
    0x00,
    0x80,
    0x01,
    0x00,
    0x00,
    0x84,
    0x01,
    0x00,
    0x00,
    0x88,
    0x01,
    0x00,
    0x00,
    0x04,
    0x00,
    0x00,
    0x00,
    0x6d,
    0x61,
    0x69,
    0x6e,
    0x00,
    0x00,
    0x00,
    0x00,
    0x05,
    0x00,
    0x00,
    0x00,
    0x1c,
    0x01,
    0x00,
    0x00,
    0xcc,
    0x00,
    0x00,
    0x00,
    0x98,
    0x00,
    0x00,
    0x00,
    0x50,
    0x00,
    0x00,
    0x00,
    0x14,
    0x00,
    0x00,
    0x00,
    0x00,
    0x00,
    0x0e,
    0x00,
    0x1a,
    0x00,
    0x14,
    0x00,
    0x10,
    0x00,
    0x0c,
    0x00,
    0x0b,
    0x00,
    0x04,
    0x00,
    0x0e,
    0x00,
    0x00,
    0x00,
    0x1c,
    0x00,
    0x00,
    0x00,
    0x00,
    0x00,
    0x00,
    0x09,
    0x1c,
    0x00,
    0x00,
    0x00,
    0x20,
    0x00,
    0x00,
    0x00,
    0x03,
    0x00,
    0x00,
    0x00,
    0x00,
    0x00,
    0x06,
    0x00,
    0x08,
    0x00,
    0x04,
    0x00,
    0x06,
    0x00,
    0x00,
    0x00,
    0x00,
    0x00,
    0x80,
    0x3f,
    0x01,
    0x00,
    0x00,
    0x00,
    0x0c,
    0x00,
    0x00,
    0x00,
    0x01,
    0x00,
    0x00,
    0x00,
    0x0b,
    0x00,
    0x00,
    0x00,
    0xca,
    0xff,
    0xff,
    0xff,
    0x14,
    0x00,
    0x00,
    0x00,
    0x00,
    0x00,
    0x00,
    0x08,
    0x10,
    0x00,
    0x00,
    0x00,
    0x14,
    0x00,
    0x00,
    0x00,
    0x02,
    0x00,
    0x00,
    0x00,
    0x80,
    0xf4,
    0xff,
    0xff,
    0x01,
    0x00,
    0x00,
    0x00,
    0x0b,
    0x00,
    0x00,
    0x00,
    0x03,
    0x00,
    0x00,
    0x00,
    0x0a,
    0x00,
    0x00,
    0x00,
    0x03,
    0x00,
    0x00,
    0x00,
    0x02,
    0x00,
    0x00,
    0x00,
    0x00,
    0x00,
    0x0e,
    0x00,
    0x18,
    0x00,
    0x14,
    0x00,
    0x10,
    0x00,
    0x0c,
    0x00,
    0x0b,
    0x00,
    0x04,
    0x00,
    0x0e,
    0x00,
    0x00,
    0x00,
    0x14,
    0x00,
    0x00,
    0x00,
    0x00,
    0x00,
    0x00,
    0x1b,
    0x10,
    0x00,
    0x00,
    0x00,
    0x14,
    0x00,
    0x00,
    0x00,
    0x01,
    0x00,
    0x00,
    0x00,
    0xc4,
    0xf4,
    0xff,
    0xff,
    0x01,
    0x00,
    0x00,
    0x00,
    0x0a,
    0x00,
    0x00,
    0x00,
    0x02,
    0x00,
    0x00,
    0x00,
    0x09,
    0x00,
    0x00,
    0x00,
    0x01,
    0x00,
    0x00,
    0x00,
    0xc2,
    0xff,
    0xff,
    0xff,
    0x10,
    0x00,
    0x00,
    0x00,
    0x00,
    0x00,
    0x00,
    0x01,
    0x18,
    0x00,
    0x00,
    0x00,
    0x1c,
    0x00,
    0x00,
    0x00,
    0xb4,
    0xff,
    0xff,
    0xff,
    0x00,
    0x00,
    0x00,
    0x01,
    0x02,
    0x00,
    0x00,
    0x00,
    0x02,
    0x00,
    0x00,
    0x00,
    0x01,
    0x00,
    0x00,
    0x00,
    0x09,
    0x00,
    0x00,
    0x00,
    0x03,
    0x00,
    0x00,
    0x00,
    0x08,
    0x00,
    0x00,
    0x00,
    0x05,
    0x00,
    0x00,
    0x00,
    0x04,
    0x00,
    0x00,
    0x00,
    0x00,
    0x00,
    0x0e,
    0x00,
    0x14,
    0x00,
    0x00,
    0x00,
    0x10,
    0x00,
    0x0c,
    0x00,
    0x0b,
    0x00,
    0x04,
    0x00,
    0x0e,
    0x00,
    0x00,
    0x00,
    0x1c,
    0x00,
    0x00,
    0x00,
    0x00,
    0x00,
    0x00,
    0x01,
    0x24,
    0x00,
    0x00,
    0x00,
    0x28,
    0x00,
    0x00,
    0x00,
    0x0c,
    0x00,
    0x10,
    0x00,
    0x00,
    0x00,
    0x0c,
    0x00,
    0x08,
    0x00,
    0x07,
    0x00,
    0x0c,
    0x00,
    0x00,
    0x00,
    0x00,
    0x00,
    0x00,
    0x01,
    0x02,
    0x00,
    0x00,
    0x00,
    0x02,
    0x00,
    0x00,
    0x00,
    0x01,
    0x00,
    0x00,
    0x00,
    0x08,
    0x00,
    0x00,
    0x00,
    0x03,
    0x00,
    0x00,
    0x00,
    0x00,
    0x00,
    0x00,
    0x00,
    0x07,
    0x00,
    0x00,
    0x00,
    0x06,
    0x00,
    0x00,
    0x00,
    0x01,
    0x00,
    0x00,
    0x00,
    0x0c,
    0x00,
    0x00,
    0x00,
    0x01,
    0x00,
    0x00,
    0x00,
    0x00,
    0x00,
    0x00,
    0x00,
    0x0d,
    0x00,
    0x00,
    0x00,
    0xb8,
    0x0a,
    0x00,
    0x00,
    0x5c,
    0x0a,
    0x00,
    0x00,
    0xb4,
    0x08,
    0x00,
    0x00,
    0x20,
    0x07,
    0x00,
    0x00,
    0x0c,
    0x06,
    0x00,
    0x00,
    0xe8,
    0x04,
    0x00,
    0x00,
    0x34,
    0x04,
    0x00,
    0x00,
    0x70,
    0x03,
    0x00,
    0x00,
    0x94,
    0x02,
    0x00,
    0x00,
    0xb8,
    0x01,
    0x00,
    0x00,
    0x24,
    0x01,
    0x00,
    0x00,
    0x80,
    0x00,
    0x00,
    0x00,
    0x04,
    0x00,
    0x00,
    0x00,
    0x92,
    0xf5,
    0xff,
    0xff,
    0x00,
    0x00,
    0x00,
    0x01,
    0x18,
    0x00,
    0x00,
    0x00,
    0x20,
    0x00,
    0x00,
    0x00,
    0x3c,
    0x00,
    0x00,
    0x00,
    0x0d,
    0x00,
    0x00,
    0x00,
    0x00,
    0x00,
    0x00,
    0x09,
    0x50,
    0x00,
    0x00,
    0x00,
    0x02,
    0x00,
    0x00,
    0x00,
    0xff,
    0xff,
    0xff,
    0xff,
    0x1a,
    0x00,
    0x00,
    0x00,
    0x74,
    0xf5,
    0xff,
    0xff,
    0x08,
    0x00,
    0x00,
    0x00,
    0x10,
    0x00,
    0x00,
    0x00,
    0x01,
    0x00,
    0x00,
    0x00,
    0x80,
    0xff,
    0xff,
    0xff,
    0xff,
    0xff,
    0xff,
    0xff,
    0x01,
    0x00,
    0x00,
    0x00,
    0x00,
    0x00,
    0x80,
    0x3b,
    0x1b,
    0x00,
    0x00,
    0x00,
    0x53,
    0x74,
    0x61,
    0x74,
    0x65,
    0x66,
    0x75,
    0x6c,
    0x50,
    0x61,
    0x72,
    0x74,
    0x69,
    0x74,
    0x69,
    0x6f,
    0x6e,
    0x65,
    0x64,
    0x43,
    0x61,
    0x6c,
    0x6c,
    0x5f,
    0x31,
    0x3a,
    0x30,
    0x00,
    0x02,
    0x00,
    0x00,
    0x00,
    0x01,
    0x00,
    0x00,
    0x00,
    0x1a,
    0x00,
    0x00,
    0x00,
    0x0a,
    0xf6,
    0xff,
    0xff,
    0x00,
    0x00,
    0x00,
    0x01,
    0x18,
    0x00,
    0x00,
    0x00,
    0x20,
    0x00,
    0x00,
    0x00,
    0x3c,
    0x00,
    0x00,
    0x00,
    0x0c,
    0x00,
    0x00,
    0x00,
    0x00,
    0x00,
    0x00,
    0x09,
    0x78,
    0x00,
    0x00,
    0x00,
    0x02,
    0x00,
    0x00,
    0x00,
    0xff,
    0xff,
    0xff,
    0xff,
    0x1a,
    0x00,
    0x00,
    0x00,
    0xec,
    0xf5,
    0xff,
    0xff,
    0x08,
    0x00,
    0x00,
    0x00,
    0x10,
    0x00,
    0x00,
    0x00,
    0x01,
    0x00,
    0x00,
    0x00,
    0x47,
    0x00,
    0x00,
    0x00,
    0x00,
    0x00,
    0x00,
    0x00,
    0x01,
    0x00,
    0x00,
    0x00,
    0x54,
    0x17,
    0x30,
    0x3e,
    0x40,
    0x00,
    0x00,
    0x00,
    0x73,
    0x65,
    0x71,
    0x75,
    0x65,
    0x6e,
    0x74,
    0x69,
    0x61,
    0x6c,
    0x5f,
    0x31,
    0x5f,
    0x31,
    0x2f,
    0x64,
    0x65,
    0x6e,
    0x73,
    0x65,
    0x5f,
    0x31,
    0x5f,
    0x31,
    0x2f,
    0x4d,
    0x61,
    0x74,
    0x4d,
    0x75,
    0x6c,
    0x3b,
    0x73,
    0x65,
    0x71,
    0x75,
    0x65,
    0x6e,
    0x74,
    0x69,
    0x61,
    0x6c,
    0x5f,
    0x31,
    0x5f,
    0x31,
    0x2f,
    0x64,
    0x65,
    0x6e,
    0x73,
    0x65,
    0x5f,
    0x31,
    0x5f,
    0x31,
    0x2f,
    0x42,
    0x69,
    0x61,
    0x73,
    0x41,
    0x64,
    0x64,
    0x00,
    0x00,
    0x00,
    0x00,
    0x02,
    0x00,
    0x00,
    0x00,
    0x01,
    0x00,
    0x00,
    0x00,
    0x1a,
    0x00,
    0x00,
    0x00,
    0xaa,
    0xf6,
    0xff,
    0xff,
    0x00,
    0x00,
    0x00,
    0x01,
    0x18,
    0x00,
    0x00,
    0x00,
    0x20,
    0x00,
    0x00,
    0x00,
    0x3c,
    0x00,
    0x00,
    0x00,
    0x0b,
    0x00,
    0x00,
    0x00,
    0x00,
    0x00,
    0x00,
    0x09,
    0x68,
    0x00,
    0x00,
    0x00,
    0x02,
    0x00,
    0x00,
    0x00,
    0xff,
    0xff,
    0xff,
    0xff,
    0x10,
    0x00,
    0x00,
    0x00,
    0x8c,
    0xf6,
    0xff,
    0xff,
    0x08,
    0x00,
    0x00,
    0x00,
    0x10,
    0x00,
    0x00,
    0x00,
    0x01,
    0x00,
    0x00,
    0x00,
    0x80,
    0xff,
    0xff,
    0xff,
    0xff,
    0xff,
    0xff,
    0xff,
    0x01,
    0x00,
    0x00,
    0x00,
    0x25,
    0xdb,
    0x35,
    0x3e,
    0x30,
    0x00,
    0x00,
    0x00,
    0x73,
    0x65,
    0x71,
    0x75,
    0x65,
    0x6e,
    0x74,
    0x69,
    0x61,
    0x6c,
    0x5f,
    0x31,
    0x5f,
    0x31,
    0x2f,
    0x67,
    0x6c,
    0x6f,
    0x62,
    0x61,
    0x6c,
    0x5f,
    0x61,
    0x76,
    0x65,
    0x72,
    0x61,
    0x67,
    0x65,
    0x5f,
    0x70,
    0x6f,
    0x6f,
    0x6c,
    0x69,
    0x6e,
    0x67,
    0x32,
    0x64,
    0x5f,
    0x31,
    0x5f,
    0x31,
    0x2f,
    0x4d,
    0x65,
    0x61,
    0x6e,
    0x00,
    0x00,
    0x00,
    0x00,
    0x02,
    0x00,
    0x00,
    0x00,
    0x01,
    0x00,
    0x00,
    0x00,
    0x10,
    0x00,
    0x00,
    0x00,
    0x3a,
    0xf7,
    0xff,
    0xff,
    0x00,
    0x00,
    0x00,
    0x01,
    0x18,
    0x00,
    0x00,
    0x00,
    0x28,
    0x00,
    0x00,
    0x00,
    0x48,
    0x00,
    0x00,
    0x00,
    0x0a,
    0x00,
    0x00,
    0x00,
    0x00,
    0x00,
    0x00,
    0x09,
    0xa8,
    0x00,
    0x00,
    0x00,
    0x04,
    0x00,
    0x00,
    0x00,
    0xff,
    0xff,
    0xff,
    0xff,
    0x07,
    0x00,
    0x00,
    0x00,
    0x07,
    0x00,
    0x00,
    0x00,
    0x10,
    0x00,
    0x00,
    0x00,
    0x24,
    0xf7,
    0xff,
    0xff,
    0x08,
    0x00,
    0x00,
    0x00,
    0x14,
    0x00,
    0x00,
    0x00,
    0x01,
    0x00,
    0x00,
    0x00,
    0x80,
    0xff,
    0xff,
    0xff,
    0xff,
    0xff,
    0xff,
    0xff,
    0x00,
    0x00,
    0x00,
    0x00,
    0x01,
    0x00,
    0x00,
    0x00,
    0x35,
    0x64,
    0x2e,
    0x3f,
    0x67,
    0x00,
    0x00,
    0x00,
    0x73,
    0x65,
    0x71,
    0x75,
    0x65,
    0x6e,
    0x74,
    0x69,
    0x61,
    0x6c,
    0x5f,
    0x31,
    0x5f,
    0x31,
    0x2f,
    0x63,
    0x6f,
    0x6e,
    0x76,
    0x32,
    0x64,
    0x5f,
    0x33,
    0x5f,
    0x31,
    0x2f,
    0x52,
    0x65,
    0x6c,
    0x75,
    0x3b,
    0x73,
    0x65,
    0x71,
    0x75,
    0x65,
    0x6e,
    0x74,
    0x69,
    0x61,
    0x6c,
    0x5f,
    0x31,
    0x5f,
    0x31,
    0x2f,
    0x63,
    0x6f,
    0x6e,
    0x76,
    0x32,
    0x64,
    0x5f,
    0x33,
    0x5f,
    0x31,
    0x2f,
    0x42,
    0x69,
    0x61,
    0x73,
    0x41,
    0x64,
    0x64,
    0x3b,
    0x73,
    0x65,
    0x71,
    0x75,
    0x65,
    0x6e,
    0x74,
    0x69,
    0x61,
    0x6c,
    0x5f,
    0x31,
    0x5f,
    0x31,
    0x2f,
    0x63,
    0x6f,
    0x6e,
    0x76,
    0x32,
    0x64,
    0x5f,
    0x33,
    0x5f,
    0x31,
    0x2f,
    0x63,
    0x6f,
    0x6e,
    0x76,
    0x6f,
    0x6c,
    0x75,
    0x74,
    0x69,
    0x6f,
    0x6e,
    0x3b,
    0x00,
    0x04,
    0x00,
    0x00,
    0x00,
    0x01,
    0x00,
    0x00,
    0x00,
    0x07,
    0x00,
    0x00,
    0x00,
    0x07,
    0x00,
    0x00,
    0x00,
    0x10,
    0x00,
    0x00,
    0x00,
    0x12,
    0xf8,
    0xff,
    0xff,
    0x00,
    0x00,
    0x00,
    0x01,
    0x18,
    0x00,
    0x00,
    0x00,
    0x28,
    0x00,
    0x00,
    0x00,
    0x44,
    0x00,
    0x00,
    0x00,
    0x09,
    0x00,
    0x00,
    0x00,
    0x00,
    0x00,
    0x00,
    0x09,
    0xa8,
    0x00,
    0x00,
    0x00,
    0x04,
    0x00,
    0x00,
    0x00,
    0xff,
    0xff,
    0xff,
    0xff,
    0x0e,
    0x00,
    0x00,
    0x00,
    0x0e,
    0x00,
    0x00,
    0x00,
    0x08,
    0x00,
    0x00,
    0x00,
    0xfc,
    0xf7,
    0xff,
    0xff,
    0x08,
    0x00,
    0x00,
    0x00,
    0x10,
    0x00,
    0x00,
    0x00,
    0x01,
    0x00,
    0x00,
    0x00,
    0x80,
    0xff,
    0xff,
    0xff,
    0xff,
    0xff,
    0xff,
    0xff,
    0x01,
    0x00,
    0x00,
    0x00,
    0xd7,
    0x06,
    0xb0,
    0x3d,
    0x68,
    0x00,
    0x00,
    0x00,
    0x73,
    0x65,
    0x71,
    0x75,
    0x65,
    0x6e,
    0x74,
    0x69,
    0x61,
    0x6c,
    0x5f,
    0x31,
    0x5f,
    0x31,
    0x2f,
    0x63,
    0x6f,
    0x6e,
    0x76,
    0x32,
    0x64,
    0x5f,
    0x32,
    0x5f,
    0x31,
    0x2f,
    0x52,
    0x65,
    0x6c,
    0x75,
    0x3b,
    0x73,
    0x65,
    0x71,
    0x75,
    0x65,
    0x6e,
    0x74,
    0x69,
    0x61,
    0x6c,
    0x5f,
    0x31,
    0x5f,
    0x31,
    0x2f,
    0x63,
    0x6f,
    0x6e,
    0x76,
    0x32,
    0x64,
    0x5f,
    0x32,
    0x5f,
    0x31,
    0x2f,
    0x42,
    0x69,
    0x61,
    0x73,
    0x41,
    0x64,
    0x64,
    0x3b,
    0x73,
    0x65,
    0x71,
    0x75,
    0x65,
    0x6e,
    0x74,
    0x69,
    0x61,
    0x6c,
    0x5f,
    0x31,
    0x5f,
    0x31,
    0x2f,
    0x63,
    0x6f,
    0x6e,
    0x76,
    0x32,
    0x64,
    0x5f,
    0x32,
    0x5f,
    0x31,
    0x2f,
    0x63,
    0x6f,
    0x6e,
    0x76,
    0x6f,
    0x6c,
    0x75,
    0x74,
    0x69,
    0x6f,
    0x6e,
    0x3b,
    0x31,
    0x00,
    0x00,
    0x00,
    0x00,
    0x04,
    0x00,
    0x00,
    0x00,
    0x01,
    0x00,
    0x00,
    0x00,
    0x0e,
    0x00,
    0x00,
    0x00,
    0x0e,
    0x00,
    0x00,
    0x00,
    0x08,
    0x00,
    0x00,
    0x00,
    0x42,
    0xf9,
    0xff,
    0xff,
    0x00,
    0x00,
    0x00,
    0x01,
    0x14,
    0x00,
    0x00,
    0x00,
    0x88,
    0x00,
    0x00,
    0x00,
    0x08,
    0x00,
    0x00,
    0x00,
    0x00,
    0x00,
    0x00,
    0x09,
    0x94,
    0x00,
    0x00,
    0x00,
    0xbc,
    0xf8,
    0xff,
    0xff,
    0x08,
    0x00,
    0x00,
    0x00,
    0x4c,
    0x00,
    0x00,
    0x00,
    0x08,
    0x00,
    0x00,
    0x00,
    0x00,
    0x00,
    0x00,
    0x00,
    0x00,
    0x00,
    0x00,
    0x00,
    0x00,
    0x00,
    0x00,
    0x00,
    0x00,
    0x00,
    0x00,
    0x00,
    0x00,
    0x00,
    0x00,
    0x00,
    0x00,
    0x00,
    0x00,
    0x00,
    0x00,
    0x00,
    0x00,
    0x00,
    0x00,
    0x00,
    0x00,
    0x00,
    0x00,
    0x00,
    0x00,
    0x00,
    0x00,
    0x00,
    0x00,
    0x00,
    0x00,
    0x00,
    0x00,
    0x00,
    0x00,
    0x00,
    0x00,
    0x00,
    0x00,
    0x00,
    0x00,
    0x00,
    0x00,
    0x00,
    0x00,
    0x00,
    0x00,
    0x00,
    0x00,
    0x00,
    0x00,
    0x00,
    0x00,
    0x00,
    0x00,
    0x00,
    0x00,
    0x00,
    0x08,
    0x00,
    0x00,
    0x00,
    0xee,
    0x89,
    0x8f,
    0x3c,
    0xa8,
    0x70,
    0x64,
    0x3d,
    0x53,
    0xfa,
    0x8a,
    0x3c,
    0x5b,
    0x64,
    0x55,
    0x3d,
    0xb0,
    0x2f,
    0x2b,
    0x3d,
    0x2e,
    0x8d,
    0x68,
    0x3d,
    0x69,
    0x7d,
    0x0e,
    0x3d,
    0x32,
    0xc6,
    0x53,
    0x3d,
    0x12,
    0x00,
    0x00,
    0x00,
    0x74,
    0x66,
    0x6c,
    0x2e,
    0x70,
    0x73,
    0x65,
    0x75,
    0x64,
    0x6f,
    0x5f,
    0x71,
    0x63,
    0x6f,
    0x6e,
    0x73,
    0x74,
    0x35,
    0x00,
    0x00,
    0x04,
    0x00,
    0x00,
    0x00,
    0x08,
    0x00,
    0x00,
    0x00,
    0x03,
    0x00,
    0x00,
    0x00,
    0x03,
    0x00,
    0x00,
    0x00,
    0x01,
    0x00,
    0x00,
    0x00,
    0x02,
    0xfa,
    0xff,
    0xff,
    0x00,
    0x00,
    0x00,
    0x01,
    0x14,
    0x00,
    0x00,
    0x00,
    0x84,
    0x00,
    0x00,
    0x00,
    0x07,
    0x00,
    0x00,
    0x00,
    0x00,
    0x00,
    0x00,
    0x02,
    0x90,
    0x00,
    0x00,
    0x00,
    0x7c,
    0xf9,
    0xff,
    0xff,
    0x08,
    0x00,
    0x00,
    0x00,
    0x48,
    0x00,
    0x00,
    0x00,
    0x08,
    0x00,
    0x00,
    0x00,
    0x00,
    0x00,
    0x00,
    0x00,
    0x00,
    0x00,
    0x00,
    0x00,
    0x00,
    0x00,
    0x00,
    0x00,
    0x00,
    0x00,
    0x00,
    0x00,
    0x00,
    0x00,
    0x00,
    0x00,
    0x00,
    0x00,
    0x00,
    0x00,
    0x00,
    0x00,
    0x00,
    0x00,
    0x00,
    0x00,
    0x00,
    0x00,
    0x00,
    0x00,
    0x00,
    0x00,
    0x00,
    0x00,
    0x00,
    0x00,
    0x00,
    0x00,
    0x00,
    0x00,
    0x00,
    0x00,
    0x00,
    0x00,
    0x00,
    0x00,
    0x00,
    0x00,
    0x00,
    0x00,
    0x00,
    0x00,
    0x00,
    0x00,
    0x00,
    0x00,
    0x00,
    0x00,
    0x00,
    0x00,
    0x08,
    0x00,
    0x00,
    0x00,
    0x09,
    0x1a,
    0x90,
    0x38,
    0xff,
    0x55,
    0x65,
    0x39,
    0xd9,
    0x85,
    0x8b,
    0x38,
    0x96,
    0x3a,
    0x56,
    0x39,
    0x8c,
    0xdb,
    0x2b,
    0x39,
    0xa6,
    0x76,
    0x69,
    0x39,
    0x76,
    0x0c,
    0x0f,
    0x39,
    0xce,
    0x9a,
    0x54,
    0x39,
    0x12,
    0x00,
    0x00,
    0x00,
    0x74,
    0x66,
    0x6c,
    0x2e,
    0x70,
    0x73,
    0x65,
    0x75,
    0x64,
    0x6f,
    0x5f,
    0x71,
    0x63,
    0x6f,
    0x6e,
    0x73,
    0x74,
    0x34,
    0x00,
    0x00,
    0x01,
    0x00,
    0x00,
    0x00,
    0x08,
    0x00,
    0x00,
    0x00,
    0xb2,
    0xfa,
    0xff,
    0xff,
    0x00,
    0x00,
    0x00,
    0x01,
    0x14,
    0x00,
    0x00,
    0x00,
    0xe8,
    0x00,
    0x00,
    0x00,
    0x06,
    0x00,
    0x00,
    0x00,
    0x00,
    0x00,
    0x00,
    0x09,
    0xf4,
    0x00,
    0x00,
    0x00,
    0x2c,
    0xfa,
    0xff,
    0xff,
    0x08,
    0x00,
    0x00,
    0x00,
    0x8c,
    0x00,
    0x00,
    0x00,
    0x10,
    0x00,
    0x00,
    0x00,
    0x00,
    0x00,
    0x00,
    0x00,
    0x00,
    0x00,
    0x00,
    0x00,
    0x00,
    0x00,
    0x00,
    0x00,
    0x00,
    0x00,
    0x00,
    0x00,
    0x00,
    0x00,
    0x00,
    0x00,
    0x00,
    0x00,
    0x00,
    0x00,
    0x00,
    0x00,
    0x00,
    0x00,
    0x00,
    0x00,
    0x00,
    0x00,
    0x00,
    0x00,
    0x00,
    0x00,
    0x00,
    0x00,
    0x00,
    0x00,
    0x00,
    0x00,
    0x00,
    0x00,
    0x00,
    0x00,
    0x00,
    0x00,
    0x00,
    0x00,
    0x00,
    0x00,
    0x00,
    0x00,
    0x00,
    0x00,
    0x00,
    0x00,
    0x00,
    0x00,
    0x00,
    0x00,
    0x00,
    0x00,
    0x00,
    0x00,
    0x00,
    0x00,
    0x00,
    0x00,
    0x00,
    0x00,
    0x00,
    0x00,
    0x00,
    0x00,
    0x00,
    0x00,
    0x00,
    0x00,
    0x00,
    0x00,
    0x00,
    0x00,
    0x00,
    0x00,
    0x00,
    0x00,
    0x00,
    0x00,
    0x00,
    0x00,
    0x00,
    0x00,
    0x00,
    0x00,
    0x00,
    0x00,
    0x00,
    0x00,
    0x00,
    0x00,
    0x00,
    0x00,
    0x00,
    0x00,
    0x00,
    0x00,
    0x00,
    0x00,
    0x00,
    0x00,
    0x00,
    0x00,
    0x00,
    0x00,
    0x00,
    0x00,
    0x00,
    0x00,
    0x00,
    0x00,
    0x00,
    0x00,
    0x00,
    0x00,
    0x00,
    0x00,
    0x00,
    0x00,
    0x00,
    0x00,
    0x10,
    0x00,
    0x00,
    0x00,
    0xe3,
    0xbe,
    0x85,
    0x3d,
    0x88,
    0x88,
    0x24,
    0x3c,
    0x9d,
    0x5f,
    0x6e,
    0x3c,
    0x3e,
    0x74,
    0x3d,
    0x3d,
    0x7a,
    0x02,
    0x1e,
    0x3d,
    0xc9,
    0xdd,
    0x0c,
    0x3d,
    0xe7,
    0xb5,
    0x24,
    0x3d,
    0xff,
    0xd7,
    0x6f,
    0x3c,
    0xbe,
    0xd7,
    0xaa,
    0x3d,
    0xf6,
    0xcd,
    0xbd,
    0x3c,
    0x88,
    0x32,
    0x15,
    0x3c,
    0x2d,
    0x35,
    0x04,
    0x3d,
    0xec,
    0x42,
    0xac,
    0x3c,
    0xc8,
    0x46,
    0x31,
    0x3d,
    0x4c,
    0x96,
    0xd4,
    0x3a,
    0xb1,
    0x16,
    0x92,
    0x3d,
    0x12,
    0x00,
    0x00,
    0x00,
    0x74,
    0x66,
    0x6c,
    0x2e,
    0x70,
    0x73,
    0x65,
    0x75,
    0x64,
    0x6f,
    0x5f,
    0x71,
    0x63,
    0x6f,
    0x6e,
    0x73,
    0x74,
    0x33,
    0x00,
    0x00,
    0x04,
    0x00,
    0x00,
    0x00,
    0x10,
    0x00,
    0x00,
    0x00,
    0x03,
    0x00,
    0x00,
    0x00,
    0x03,
    0x00,
    0x00,
    0x00,
    0x08,
    0x00,
    0x00,
    0x00,
    0xd2,
    0xfb,
    0xff,
    0xff,
    0x00,
    0x00,
    0x00,
    0x01,
    0x14,
    0x00,
    0x00,
    0x00,
    0xe4,
    0x00,
    0x00,
    0x00,
    0x05,
    0x00,
    0x00,
    0x00,
    0x00,
    0x00,
    0x00,
    0x02,
    0xf0,
    0x00,
    0x00,
    0x00,
    0x4c,
    0xfb,
    0xff,
    0xff,
    0x08,
    0x00,
    0x00,
    0x00,
    0x88,
    0x00,
    0x00,
    0x00,
    0x10,
    0x00,
    0x00,
    0x00,
    0x00,
    0x00,
    0x00,
    0x00,
    0x00,
    0x00,
    0x00,
    0x00,
    0x00,
    0x00,
    0x00,
    0x00,
    0x00,
    0x00,
    0x00,
    0x00,
    0x00,
    0x00,
    0x00,
    0x00,
    0x00,
    0x00,
    0x00,
    0x00,
    0x00,
    0x00,
    0x00,
    0x00,
    0x00,
    0x00,
    0x00,
    0x00,
    0x00,
    0x00,
    0x00,
    0x00,
    0x00,
    0x00,
    0x00,
    0x00,
    0x00,
    0x00,
    0x00,
    0x00,
    0x00,
    0x00,
    0x00,
    0x00,
    0x00,
    0x00,
    0x00,
    0x00,
    0x00,
    0x00,
    0x00,
    0x00,
    0x00,
    0x00,
    0x00,
    0x00,
    0x00,
    0x00,
    0x00,
    0x00,
    0x00,
    0x00,
    0x00,
    0x00,
    0x00,
    0x00,
    0x00,
    0x00,
    0x00,
    0x00,
    0x00,
    0x00,
    0x00,
    0x00,
    0x00,
    0x00,
    0x00,
    0x00,
    0x00,
    0x00,
    0x00,
    0x00,
    0x00,
    0x00,
    0x00,
    0x00,
    0x00,
    0x00,
    0x00,
    0x00,
    0x00,
    0x00,
    0x00,
    0x00,
    0x00,
    0x00,
    0x00,
    0x00,
    0x00,
    0x00,
    0x00,
    0x00,
    0x00,
    0x00,
    0x00,
    0x00,
    0x00,
    0x00,
    0x00,
    0x00,
    0x00,
    0x00,
    0x00,
    0x00,
    0x00,
    0x00,
    0x00,
    0x00,
    0x00,
    0x00,
    0x00,
    0x00,
    0x00,
    0x00,
    0x10,
    0x00,
    0x00,
    0x00,
    0x9e,
    0xed,
    0xb7,
    0x3b,
    0x86,
    0x44,
    0x62,
    0x3a,
    0x1a,
    0xe8,
    0xa3,
    0x3a,
    0xfa,
    0x44,
    0x82,
    0x3b,
    0xd9,
    0x4b,
    0x59,
    0x3b,
    0x7b,
    0xb8,
    0x41,
    0x3b,
    0xeb,
    0x82,
    0x62,
    0x3b,
    0xe8,
    0xea,
    0xa4,
    0x3a,
    0xc6,
    0xf1,
    0xea,
    0x3b,
    0xab,
    0x82,
    0x02,
    0x3b,
    0x74,
    0x2d,
    0x4d,
    0x3a,
    0x2e,
    0xd0,
    0x35,
    0x3b,
    0x39,
    0xe5,
    0xec,
    0x3a,
    0xcc,
    0xca,
    0x73,
    0x3b,
    0x02,
    0x2d,
    0x12,
    0x39,
    0x02,
    0xe7,
    0xc8,
    0x3b,
    0x12,
    0x00,
    0x00,
    0x00,
    0x74,
    0x66,
    0x6c,
    0x2e,
    0x70,
    0x73,
    0x65,
    0x75,
    0x64,
    0x6f,
    0x5f,
    0x71,
    0x63,
    0x6f,
    0x6e,
    0x73,
    0x74,
    0x32,
    0x00,
    0x00,
    0x01,
    0x00,
    0x00,
    0x00,
    0x10,
    0x00,
    0x00,
    0x00,
    0xe2,
    0xfc,
    0xff,
    0xff,
    0x00,
    0x00,
    0x00,
    0x01,
    0x14,
    0x00,
    0x00,
    0x00,
    0x60,
    0x01,
    0x00,
    0x00,
    0x04,
    0x00,
    0x00,
    0x00,
    0x00,
    0x00,
    0x00,
    0x09,
    0x6c,
    0x01,
    0x00,
    0x00,
    0x5c,
    0xfc,
    0xff,
    0xff,
    0x08,
    0x00,
    0x00,
    0x00,
    0xdc,
    0x00,
    0x00,
    0x00,
    0x1a,
    0x00,
    0x00,
    0x00,
    0x00,
    0x00,
    0x00,
    0x00,
    0x00,
    0x00,
    0x00,
    0x00,
    0x00,
    0x00,
    0x00,
    0x00,
    0x00,
    0x00,
    0x00,
    0x00,
    0x00,
    0x00,
    0x00,
    0x00,
    0x00,
    0x00,
    0x00,
    0x00,
    0x00,
    0x00,
    0x00,
    0x00,
    0x00,
    0x00,
    0x00,
    0x00,
    0x00,
    0x00,
    0x00,
    0x00,
    0x00,
    0x00,
    0x00,
    0x00,
    0x00,
    0x00,
    0x00,
    0x00,
    0x00,
    0x00,
    0x00,
    0x00,
    0x00,
    0x00,
    0x00,
    0x00,
    0x00,
    0x00,
    0x00,
    0x00,
    0x00,
    0x00,
    0x00,
    0x00,
    0x00,
    0x00,
    0x00,
    0x00,
    0x00,
    0x00,
    0x00,
    0x00,
    0x00,
    0x00,
    0x00,
    0x00,
    0x00,
    0x00,
    0x00,
    0x00,
    0x00,
    0x00,
    0x00,
    0x00,
    0x00,
    0x00,
    0x00,
    0x00,
    0x00,
    0x00,
    0x00,
    0x00,
    0x00,
    0x00,
    0x00,
    0x00,
    0x00,
    0x00,
    0x00,
    0x00,
    0x00,
    0x00,
    0x00,
    0x00,
    0x00,
    0x00,
    0x00,
    0x00,
    0x00,
    0x00,
    0x00,
    0x00,
    0x00,
    0x00,
    0x00,
    0x00,
    0x00,
    0x00,
    0x00,
    0x00,
    0x00,
    0x00,
    0x00,
    0x00,
    0x00,
    0x00,
    0x00,
    0x00,
    0x00,
    0x00,
    0x00,
    0x00,
    0x00,
    0x00,
    0x00,
    0x00,
    0x00,
    0x00,
    0x00,
    0x00,
    0x00,
    0x00,
    0x00,
    0x00,
    0x00,
    0x00,
    0x00,
    0x00,
    0x00,
    0x00,
    0x00,
    0x00,
    0x00,
    0x00,
    0x00,
    0x00,
    0x00,
    0x00,
    0x00,
    0x00,
    0x00,
    0x00,
    0x00,
    0x00,
    0x00,
    0x00,
    0x00,
    0x00,
    0x00,
    0x00,
    0x00,
    0x00,
    0x00,
    0x00,
    0x00,
    0x00,
    0x00,
    0x00,
    0x00,
    0x00,
    0x00,
    0x00,
    0x00,
    0x00,
    0x00,
    0x00,
    0x00,
    0x00,
    0x00,
    0x00,
    0x00,
    0x00,
    0x00,
    0x00,
    0x00,
    0x00,
    0x00,
    0x00,
    0x00,
    0x00,
    0x00,
    0x00,
    0x00,
    0x00,
    0x00,
    0x00,
    0x00,
    0x00,
    0x00,
    0x00,
    0x00,
    0x00,
    0x00,
    0x00,
    0x00,
    0x00,
    0x1a,
    0x00,
    0x00,
    0x00,
    0x9a,
    0x50,
    0xe6,
    0x3b,
    0x53,
    0xaf,
    0x05,
    0x3c,
    0xd8,
    0xf0,
    0x78,
    0x3c,
    0xfb,
    0x5b,
    0xc1,
    0x3b,
    0x50,
    0xef,
    0x19,
    0x3c,
    0x8d,
    0x3a,
    0x84,
    0x3c,
    0x54,
    0x44,
    0xe0,
    0x3b,
    0xbf,
    0x01,
    0xf2,
    0x3b,
    0x0c,
    0xcb,
    0x58,
    0x3c,
    0xe8,
    0x02,
    0x13,
    0x3c,
    0x45,
    0x6d,
    0x51,
    0x3c,
    0x5c,
    0x8d,
    0x4d,
    0x3c,
    0x31,
    0x89,
    0x8f,
    0x3c,
    0x17,
    0x03,
    0x75,
    0x3c,
    0xf2,
    0x66,
    0x83,
    0x3c,
    0x99,
    0xcc,
    0x27,
    0x3c,
    0x45,
    0x8d,
    0xef,
    0x3b,
    0x36,
    0xdf,
    0xdc,
    0x3b,
    0xa2,
    0x64,
    0x42,
    0x3c,
    0x46,
    0x9e,
    0xf9,
    0x3b,
    0xb2,
    0x4b,
    0x58,
    0x3c,
    0xb9,
    0x35,
    0x7b,
    0x3c,
    0x86,
    0xa5,
    0x93,
    0x3c,
    0x55,
    0x9e,
    0x28,
    0x3c,
    0x6e,
    0xd4,
    0x25,
    0x3c,
    0x42,
    0xf8,
    0x5b,
    0x3c,
    0x12,
    0x00,
    0x00,
    0x00,
    0x74,
    0x66,
    0x6c,
    0x2e,
    0x70,
    0x73,
    0x65,
    0x75,
    0x64,
    0x6f,
    0x5f,
    0x71,
    0x63,
    0x6f,
    0x6e,
    0x73,
    0x74,
    0x31,
    0x00,
    0x00,
    0x02,
    0x00,
    0x00,
    0x00,
    0x1a,
    0x00,
    0x00,
    0x00,
    0x10,
    0x00,
    0x00,
    0x00,
    0x72,
    0xfe,
    0xff,
    0xff,
    0x00,
    0x00,
    0x00,
    0x01,
    0x14,
    0x00,
    0x00,
    0x00,
    0x60,
    0x01,
    0x00,
    0x00,
    0x03,
    0x00,
    0x00,
    0x00,
    0x00,
    0x00,
    0x00,
    0x02,
    0x6c,
    0x01,
    0x00,
    0x00,
    0xec,
    0xfd,
    0xff,
    0xff,
    0x08,
    0x00,
    0x00,
    0x00,
    0xdc,
    0x00,
    0x00,
    0x00,
    0x1a,
    0x00,
    0x00,
    0x00,
    0x00,
    0x00,
    0x00,
    0x00,
    0x00,
    0x00,
    0x00,
    0x00,
    0x00,
    0x00,
    0x00,
    0x00,
    0x00,
    0x00,
    0x00,
    0x00,
    0x00,
    0x00,
    0x00,
    0x00,
    0x00,
    0x00,
    0x00,
    0x00,
    0x00,
    0x00,
    0x00,
    0x00,
    0x00,
    0x00,
    0x00,
    0x00,
    0x00,
    0x00,
    0x00,
    0x00,
    0x00,
    0x00,
    0x00,
    0x00,
    0x00,
    0x00,
    0x00,
    0x00,
    0x00,
    0x00,
    0x00,
    0x00,
    0x00,
    0x00,
    0x00,
    0x00,
    0x00,
    0x00,
    0x00,
    0x00,
    0x00,
    0x00,
    0x00,
    0x00,
    0x00,
    0x00,
    0x00,
    0x00,
    0x00,
    0x00,
    0x00,
    0x00,
    0x00,
    0x00,
    0x00,
    0x00,
    0x00,
    0x00,
    0x00,
    0x00,
    0x00,
    0x00,
    0x00,
    0x00,
    0x00,
    0x00,
    0x00,
    0x00,
    0x00,
    0x00,
    0x00,
    0x00,
    0x00,
    0x00,
    0x00,
    0x00,
    0x00,
    0x00,
    0x00,
    0x00,
    0x00,
    0x00,
    0x00,
    0x00,
    0x00,
    0x00,
    0x00,
    0x00,
    0x00,
    0x00,
    0x00,
    0x00,
    0x00,
    0x00,
    0x00,
    0x00,
    0x00,
    0x00,
    0x00,
    0x00,
    0x00,
    0x00,
    0x00,
    0x00,
    0x00,
    0x00,
    0x00,
    0x00,
    0x00,
    0x00,
    0x00,
    0x00,
    0x00,
    0x00,
    0x00,
    0x00,
    0x00,
    0x00,
    0x00,
    0x00,
    0x00,
    0x00,
    0x00,
    0x00,
    0x00,
    0x00,
    0x00,
    0x00,
    0x00,
    0x00,
    0x00,
    0x00,
    0x00,
    0x00,
    0x00,
    0x00,
    0x00,
    0x00,
    0x00,
    0x00,
    0x00,
    0x00,
    0x00,
    0x00,
    0x00,
    0x00,
    0x00,
    0x00,
    0x00,
    0x00,
    0x00,
    0x00,
    0x00,
    0x00,
    0x00,
    0x00,
    0x00,
    0x00,
    0x00,
    0x00,
    0x00,
    0x00,
    0x00,
    0x00,
    0x00,
    0x00,
    0x00,
    0x00,
    0x00,
    0x00,
    0x00,
    0x00,
    0x00,
    0x00,
    0x00,
    0x00,
    0x00,
    0x00,
    0x00,
    0x00,
    0x00,
    0x00,
    0x00,
    0x00,
    0x00,
    0x00,
    0x00,
    0x00,
    0x00,
    0x00,
    0x00,
    0x00,
    0x00,
    0x00,
    0x00,
    0x00,
    0x1a,
    0x00,
    0x00,
    0x00,
    0x25,
    0x9c,
    0xa3,
    0x3a,
    0xcc,
    0xee,
    0xbd,
    0x3a,
    0x63,
    0xd7,
    0x30,
    0x3b,
    0x8e,
    0x5b,
    0x89,
    0x3a,
    0xf3,
    0xb3,
    0xda,
    0x3a,
    0x2e,
    0xdd,
    0x3b,
    0x3b,
    0x4a,
    0x50,
    0x9f,
    0x3a,
    0x67,
    0xea,
    0xab,
    0x3a,
    0x25,
    0x01,
    0x1a,
    0x3b,
    0xce,
    0xdd,
    0xd0,
    0x3a,
    0x89,
    0xc5,
    0x14,
    0x3b,
    0xe8,
    0x04,
    0x12,
    0x3b,
    0xbe,
    0xed,
    0x4b,
    0x3b,
    0xec,
    0x0c,
    0x2e,
    0x3b,
    0x8a,
    0xb0,
    0x3a,
    0x3b,
    0x99,
    0x66,
    0xee,
    0x3a,
    0xf2,
    0x2b,
    0xaa,
    0x3a,
    0xe4,
    0xe6,
    0x9c,
    0x3a,
    0x8f,
    0x17,
    0x0a,
    0x3b,
    0x96,
    0x52,
    0xb1,
    0x3a,
    0xad,
    0xa6,
    0x19,
    0x3b,
    0x07,
    0x74,
    0x32,
    0x3b,
    0xd7,
    0xc4,
    0x51,
    0x3b,
    0x94,
    0x90,
    0xef,
    0x3a,
    0x4d,
    0x9a,
    0xeb,
    0x3a,
    0xd4,
    0x42,
    0x1c,
    0x3b,
    0x11,
    0x00,
    0x00,
    0x00,
    0x74,
    0x66,
    0x6c,
    0x2e,
    0x70,
    0x73,
    0x65,
    0x75,
    0x64,
    0x6f,
    0x5f,
    0x71,
    0x63,
    0x6f,
    0x6e,
    0x73,
    0x74,
    0x00,
    0x00,
    0x00,
    0x01,
    0x00,
    0x00,
    0x00,
    0x1a,
    0x00,
    0x00,
    0x00,
    0x00,
    0x00,
    0x16,
    0x00,
    0x1c,
    0x00,
    0x18,
    0x00,
    0x17,
    0x00,
    0x10,
    0x00,
    0x0c,
    0x00,
    0x08,
    0x00,
    0x00,
    0x00,
    0x00,
    0x00,
    0x00,
    0x00,
    0x07,
    0x00,
    0x16,
    0x00,
    0x00,
    0x00,
    0x00,
    0x00,
    0x00,
    0x01,
    0x18,
    0x00,
    0x00,
    0x00,
    0x18,
    0x00,
    0x00,
    0x00,
    0x02,
    0x00,
    0x00,
    0x00,
    0x00,
    0x00,
    0x00,
    0x02,
    0x20,
    0x00,
    0x00,
    0x00,
    0x04,
    0x00,
    0x04,
    0x00,
    0x04,
    0x00,
    0x00,
    0x00,
    0x0e,
    0x00,
    0x00,
    0x00,
    0x61,
    0x72,
    0x69,
    0x74,
    0x68,
    0x2e,
    0x63,
    0x6f,
    0x6e,
    0x73,
    0x74,
    0x61,
    0x6e,
    0x74,
    0x00,
    0x00,
    0x01,
    0x00,
    0x00,
    0x00,
    0x02,
    0x00,
    0x00,
    0x00,
    0x00,
    0x00,
    0x16,
    0x00,
    0x20,
    0x00,
    0x1c,
    0x00,
    0x1b,
    0x00,
    0x14,
    0x00,
    0x10,
    0x00,
    0x0c,
    0x00,
    0x00,
    0x00,
    0x00,
    0x00,
    0x08,
    0x00,
    0x07,
    0x00,
    0x16,
    0x00,
    0x00,
    0x00,
    0x00,
    0x00,
    0x00,
    0x01,
    0x18,
    0x00,
    0x00,
    0x00,
    0x34,
    0x00,
    0x00,
    0x00,
    0x54,
    0x00,
    0x00,
    0x00,
    0x01,
    0x00,
    0x00,
    0x00,
    0x00,
    0x00,
    0x00,
    0x09,
    0x70,
    0x00,
    0x00,
    0x00,
    0x04,
    0x00,
    0x00,
    0x00,
    0xff,
    0xff,
    0xff,
    0xff,
    0x1c,
    0x00,
    0x00,
    0x00,
    0x1c,
    0x00,
    0x00,
    0x00,
    0x01,
    0x00,
    0x00,
    0x00,
    0x0c,
    0x00,
    0x0c,
    0x00,
    0x00,
    0x00,
    0x00,
    0x00,
    0x08,
    0x00,
    0x04,
    0x00,
    0x0c,
    0x00,
    0x00,
    0x00,
    0x08,
    0x00,
    0x00,
    0x00,
    0x14,
    0x00,
    0x00,
    0x00,
    0x01,
    0x00,
    0x00,
    0x00,
    0x80,
    0xff,
    0xff,
    0xff,
    0xff,
    0xff,
    0xff,
    0xff,
    0x00,
    0x00,
    0x00,
    0x00,
    0x01,
    0x00,
    0x00,
    0x00,
    0x81,
    0x80,
    0x80,
    0x3b,
    0x20,
    0x00,
    0x00,
    0x00,
    0x73,
    0x65,
    0x72,
    0x76,
    0x69,
    0x6e,
    0x67,
    0x5f,
    0x64,
    0x65,
    0x66,
    0x61,
    0x75,
    0x6c,
    0x74,
    0x5f,
    0x6b,
    0x65,
    0x72,
    0x61,
    0x73,
    0x5f,
    0x74,
    0x65,
    0x6e,
    0x73,
    0x6f,
    0x72,
    0x5f,
    0x35,
    0x3a,
    0x30,
    0x00,
    0x00,
    0x00,
    0x00,
    0x04,
    0x00,
    0x00,
    0x00,
    0x01,
    0x00,
    0x00,
    0x00,
    0x1c,
    0x00,
    0x00,
    0x00,
    0x1c,
    0x00,
    0x00,
    0x00,
    0x01,
    0x00,
    0x00,
    0x00,
    0x04,
    0x00,
    0x00,
    0x00,
    0x4c,
    0x00,
    0x00,
    0x00,
    0x2c,
    0x00,
    0x00,
    0x00,
    0x18,
    0x00,
    0x00,
    0x00,
    0x04,
    0x00,
    0x00,
    0x00,
    0xd0,
    0xff,
    0xff,
    0xff,
    0x19,
    0x00,
    0x00,
    0x00,
    0x02,
    0x00,
    0x00,
    0x00,
    0x00,
    0x00,
    0x00,
    0x19,
    0xe0,
    0xff,
    0xff,
    0xff,
    0x09,
    0x00,
    0x00,
    0x00,
    0x04,
    0x00,
    0x00,
    0x00,
    0x00,
    0x00,
    0x00,
    0x09,
    0xf0,
    0xff,
    0xff,
    0xff,
    0x28,
    0x00,
    0x00,
    0x00,
    0x02,
    0x00,
    0x00,
    0x00,
    0x00,
    0x00,
    0x00,
    0x28,
    0x0c,
    0x00,
    0x10,
    0x00,
    0x0f,
    0x00,
    0x00,
    0x00,
    0x08,
    0x00,
    0x04,
    0x00,
    0x0c,
    0x00,
    0x00,
    0x00,
    0x03,
    0x00,
    0x00,
    0x00,
    0x03,
    0x00,
    0x00,
    0x00,
    0x00,
    0x00,
    0x00,
    0x03,
};
const unsigned int mnist_cnn_int8_model_len = 5976;
